a 49281
. 27633
in 14957
the 10959
on 8148
man 7818
is 7541
and 7381
of 6867
with 6179
woman 3976
, 3963
two 3877
are 3726
to 3130
people 3121
at 2960
an 2947
wearing 2623
young 2280
white 2223
shirt 2132
black 2003
his 1969
while 1947
blue 1871
men 1783
sitting 1743
red 1736
girl 1728
boy 1689
dog 1681
standing 1614
playing 1584
group 1552
street 1445
down 1392
walking 1378
front 1276
her 1264
holding 1237
one 1098
water 1061
by 1060
three 1055
women 988
up 940
green 924
little 915
for 906
looking 895
child 894
as 883
outside 871
large 841
through 813
yellow 781
children 768
brown 766
person 753
ball 735
from 728
hat 728
their 725
into 711
small 671
next 664
other 660
dressed 642
out 639
some 625
over 611
building 603
riding 584
running 581
near 571
jacket 566
another 562
around 562
field 536
sidewalk 534
orange 524
crowd 521
beach 520
stands 498
pink 493
sits 493
jumping 491
table 491
behind 489
grass 468
background 460
snow 459
stand 451
bike 449
city 447
&apos;s 444
girls 441
air 439
player 429
top 427
looks 423
asian 421
wall 417
dogs 406
several 404
that 404
older 403
four 400
dress 396
off 396
camera 393
park 387
talking 382
lady 380
something 380
soccer 375
walks 371
along 370
guitar 367
working 365
boys 364
hair 364
play 362
together 361
food 357
smiling 353
gray 343
game 340
picture 340
has 339
it 337
plays 331
car 329
hand 327
holds 322
pants 315
bench 314
road 314
him 312
side 311
old 309
glasses 306
shorts 304
sit 303
stage 303
walk 303
carrying 300
baby 299
couple 299
them 290
bicycle 287
face 281
&quot; 280
male 279
race 279
tree 279
pool 278
taking 275
rock 273
each 272
doing 267
across 261
head 261
watching 261
guy 260
dirt 259
jeans 259
there 259
area 258
boat 258
day 256
blond 252
jumps 250
back 248
hands 248
ground 246
female 245
room 245
performing 241
baseball 238
who 237
eating 236
ed 234
being 233
coat 233
using 233
striped 232
suit 231
football 229
band 226
kids 225
watch 225
its 224
under 224
a@@ 223
many 223
or 223
horse 222
store 222
mouth 221
purple 221
he 220
sign 219
long 217
this 216
look 214
sand 213
runs 212
tennis 212
reading 210
players 209
construction 208
sunglasses 208
clothing 203
microphone 202
mountain 200
basketball 198
dark 198
ocean 198
toy 198
during 197
workers 197
re@@ 195
middle 194
watches 194
be 193
climbing 193
t-shirt 193
uniform 192
past 191
elderly 190
work 190
ing 188
restaurant 188
s 188
against 187
helmet 187
es 186
y 186
team 185
train 185
dancing 183
window 183
rides 181
chair 178
they 178
about 177
posing 177
c@@ 176
all 175
covered 175
trees 174
five 173
having 173
outdoor 173
waiting 173
wooden 173
bag 172
ers 171
very 170
swimming 169
getting 168
floor 166
trying 165
line 164
colorful 163
ice 163
skateboard 163
-@@ 160
busy 160
fence 159
shirts 159
singing 159
jump 157
cart 154
e@@ 154
book 151
light 151
ride 151
inside 150
laying 150
hats 149
hill 149
market 149
high 148
truck 148
bright 147
tan 146
body 145
cap 145
in@@ 145
kitchen 145
others 145
cellphone 144
grassy 144
path 144
big 143
someone 143
making 142
bus 141
clothes 141
night 141
motorcycle 140
takes 140
umbrella 139
full 138
outfit 138
towards 138
brick 137
enjoying 137
track 137
metal 135
river 134
swing 134
paper 133
piece 133
ready 133
board 132
o@@ 132
she 131
i@@ 130
tank 129
shop 128
colored 127
d@@ 127
ds 127
open 126
sweater 126
worker 126
trick 125
above 124
painting 124
stick 124
lake 123
adults 122
going 122
d 121
music 121
dance 120
hard 120
house 120
run 120
snowy 120
vest 120
phone 119
shopping 119
surrounded 119
wave 119
onto 118
stone 118
uniforms 118
crowded 117
outdoors 117
photo 116
backpack 115
beside 115
e 115
gear 115
set 115
smiles 115
kid 114
s@@ 114
con@@ 113
pole 113
african 112
di@@ 112
drinking 112
hockey 112
subway 112
family 111
american 110
bridge 110
flowers 110
p 109
toddler 109
event 108
fire 108
gathered 108
guys 108
lot 108
ts 108
arms 107
hanging 107
police 107
away 106
catch 106
ly 106
beautiful 105
preparing 105
ca@@ 104
g@@ 104
ra@@ 104
costume 103
de@@ 103
leaning 103
object 103
sleeping 103
steps 103
after 102
fishing 102
like 102
machine 101
p@@ 101
ting 101
bar 100
co@@ 100
fountain 100
plaid 100
rope 100
er 99
po@@ 99
shirtless 99
stairs 99
chairs 98
take 98
adult 97
arm 97
l 97
rocks 96
shoes 96
graffiti 94
selling 94
sunny 94
t@@ 94
ti@@ 94
b@@ 93
does 93
forest 93
glass 93
parade 92
pose 92
racing 92
setting 92
k 91
tall 91
both 90
corner 90
m@@ 90
putting 90
un@@ 90
volleyball 90
wood 90
2 89
frisbee 89
o 89
pushing 89
throwing 89
ve 89
view 89
between 88
drink 88
have 88
ladies 88
lo@@ 88
ri@@ 88
slide 88
computer 87
ding 87
laughing 87
public 87
short 87
to@@ 87
w@@ 87
do@@ 86
equipment 86
ex@@ 86
flag 86
instruments 86
al 85
bed 85
bikes 85
couch 85
fish 85
pictures 85
ps 85
cowboy 84
party 84
plastic 84
ramp 84
way 84
i 83
playground 83
poses 83
reads 83
sweatshirt 83
trail 83
u@@ 83
which 83
woods 83
works 83
yard 83
beard 82
concrete 82
li@@ 82
ro@@ 82
skirt 82
statue 82
sun 82
be@@ 81
dock 81
midair 81
t 81
winter 81
y@@ 81
just 80
led 80
number 80
so@@ 80
an@@ 79
seated 79
distance 78
la@@ 78
lined 78
ma@@ 78
pa@@ 78
attire 77
bags 77
get 77
sh 77
sh@@ 77
toward 77
what 77
where 77
beer 76
cooking 76
der 76
school 76
six 76
blond-hair 75
cutting 75
filled 75
rider 75
right 75
v@@ 75
vests 75
buildings 74
c 74
cross 74
left 74
pulling 74
shore 74
st 74
tent 74
cream 73
middle-aged 73
mo@@ 73
mother 73
se 73
appears 72
cliff 72
crossing 72
friends 72
net 72
skateboarder 72
sky 72
station 72
ter 72
edge 71
few 71
instrument 71
les 71
me@@ 71
mountains 71
pe@@ 71
se@@ 71
showing 71
spectators 71
art 70
bearded 70
cars 70
horses 70
jersey 70
ons 70
pro@@ 70
show 70
si@@ 70
court 69
dresses 69
make 69
nearby 69
performs 69
scarf 69
suits 69
ted 69
al@@ 68
apron 68
bowling 68
box 68
carries 68
concert 68
driving 68
grill 68
perform 68
snowboarder 68
arts 67
fruit 67
leaves 67
time 67
boots 66
cigarette 66
ck 66
coffee 66
flower 66
painted 66
parked 66
structure 66
students 66
uses 66
various 66
vendor 66
cake 65
car@@ 65
cup 65
gentleman 65
goggles 65
hand@@ 65
shot 65
smile 65
surfer 65
vehicle 65
younger 65
bottle 64
door 64
drums 64
flying 64
g 64
lit 64
lying 64
martial 64
smoking 64
son 64
talks 64
bathing 63
eyes 63
flags 63
hit 63
home 63
kicking 63
ling 63
new 63
no 63
on@@ 63
st@@ 63
vi@@ 63
ar@@ 62
coming 62
f@@ 62
it@@ 62
jackets 62
ls 62
newspaper 62
paint 62
prepares 62
rain 62
rocky 62
rodeo 62
sa@@ 62
safety 62
swinging 62
waves 62
ba@@ 61
bucket 61
ce 61
conversation 61
costumes 61
different 61
gather 61
gloves 61
indian 61
le 61
parking 61
practicing 61
at@@ 60
bull 60
bunch 60
cement 60
cleaning 60
competition 60
en@@ 60
ladder 60
listening 60
roof 60
scene 60
blanket 59
can 59
items 59
le@@ 59
onlookers 59
skateboarding 59
staring 59
tie 59
wait 59
wet 59
3 58
audience 58
balloon 58
bicycles 58
bikini 58
bu@@ 58
ches 58
desk 58
do 58
empty 58
fi@@ 58
giving 58
hold 58
lawn 58
meal 58
pile 58
railing 58
sc@@ 58
ci@@ 57
cra@@ 57
cu@@ 57
drinks 57
gets 57
go 57
hot 57
leaps 57
military 57
pre@@ 57
sp@@ 57
ta@@ 57
bird 56
ch@@ 56
country 56
display 56
gathering 56
h@@ 56
king 56
pointing 56
sing 56
sliding 56
sports 56
vegetables 56
w 56
before 55
biker 55
ble 55
bowl 55
chasing 55
class 55
competing 55
facing 55
feet 55
stop 55
streets 55
wedding 55
ated 54
basket 54
helmets 54
huge 54
mask 54
n@@ 54
platform 54
speaking 54
bride 53
classroom 53
ging 53
lights 53
match 53
pass 53
silver 53
skier 53
surfing 53
teams 53
tries 53
ying 53
alley 52
climbs 52
de 52
end 52
father 52
ke 52
marathon 52
place 52
purse 52
same 52
seen 52
sings 52
ski 52
surfboard 52
traditional 52
waits 52
animal 51
bo@@ 51
counter 51
fighting 51
fla@@ 51
gold 51
kissing 51
ks 51
low 51
m 51
musicians 51
or@@ 51
ping 51
rail 51
screen 51
urban 51
break 50
females 50
skating 50
stroller 50
th@@ 50
ded 49
happy 49
hole 49
kneeling 49
lap 49
pi@@ 49
runner 49
shoulder 49
site 49
sunset 49
throw 49
walkway 49
writing 49
attempting 48
bald 48
blowing 48
business 48
christmas 48
mi@@ 48
scooter 48
sort 48
talk 48
us 48
violin 48
waving 48
ces 47
cking 47
course 47
cre@@ 47
l@@ 47
made 47
ni@@ 47
outfits 47
overlooking 47
signs 47
tables 47
tri@@ 47
ar 46
artist 46
blond-haired 46
bubbles 46
ho@@ 46
mirror 46
officer 46
says 46
ster 46
ure 46
b 45
balloons 45
base 45
cal 45
chinese 45
cked 45
close 45
fixing 45
giant 45
leans 45
life 45
n 45
alone 44
brunette 44
cafe 44
ched 44
collar 44
faces 44
fe@@ 44
foreground 44
gym 44
helping 44
leather 44
leg 44
over@@ 44
plate 44
swim 44
te@@ 44
teenage 44
umbrellas 44
wheel 44
asleep 43
brightly 43
clown 43
dancers 43
electric 43
enjoy 43
headphones 43
legs 43
mar@@ 43
meat 43
mud 43
skate 43
ss@@ 43
sticks 43
su@@ 43
wi@@ 43
am@@ 42
among 42
back@@ 42
bat 42
diving 42
falling 42
golf 42
makes 42
office 42
officers 42
passing 42
ring 42
sandals 42
snow@@ 42
stadium 42
swings 42
washing 42
wears 42
; 41
balls 41
barefoot 41
church 41
dark-haired 41
dirty 41
doorway 41
for@@ 41
friend 41
goal 41
heads 41
held 41
hiking 41
multicolored 41
musical 41
photographer 41
skiing 41
stri@@ 41
toys 41
accordion 40
ating 40
canoe 40
cloth 40
ders 40
drawing 40
el@@ 40
er@@ 40
go@@ 40
ins 40
laptop 40
leash 40
males 40
ment 40
no@@ 40
picking 40
reaching 40
row 40
ru@@ 40
singer 40
sts 40
throws 40
traffic 40
van 40
video 40
bar@@ 39
below 39
daughter 39
digging 39
flo@@ 39
members 39
move 39
performance 39
r@@ 39
relaxing 39
shallow 39
squ@@ 39
sun@@ 39
well 39
ws 39
atop 38
bicyclist 38
blo@@ 38
cat 38
catches 38
catching 38
flip 38
foot 38
gives 38
hugging 38
microscope 38
moving 38
pan@@ 38
passes 38
shovel 38
square 38
sta@@ 38
sting 38
tra@@ 38
tunnel 38
ved 38
ation 37
ch 37
chef 37
cks 37
climb 37
deep 37
drum 37
flies 37
fun 37
garden 37
gate 37
ge 37
gu@@ 37
here 37
kick 37
lab 37
leaping 37
lone 37
man@@ 37
paved 37
pping 37
prepare 37
resting 37
rolling 37
sed 37
shows 37
sled 37
sleeps 37
ss 37
stunt 37
sweeping 37
tattoo 37
tro@@ 37
&apos; 36
ad@@ 36
ats 36
beige 36
coats 36
cold 36
conversing 36
cor@@ 36
ct@@ 36
cting 36
cur@@ 36
desert 36
hoodie 36
hose 36
individuals 36
karate 36
lies 36
lots 36
photograph 36
pond 36
sculpture 36
splashing 36
teeth 36
trunks 36
upside 36
ves 36
we@@ 36
wear 36
block 35
closed 35
customers 35
fa@@ 35
formal 35
gun 35
hi@@ 35
how 35
ine 35
jogging 35
ms 35
pier 35
plants 35
points 35
round 35
telescope 35
these 35
tire 35
town 35
underneath 35
wrestling 35
cane 34
carnival 34
cut 34
cyclist 34
dances 34
eat 34
he@@ 34
hiker 34
including 34
k@@ 34
ker 34
local 34
mat 34
opposing 34
per@@ 34
project 34
roller 34
shoe 34
shoulders 34
spe@@ 34
themselves 34
waters 34
without 34
ce@@ 33
che@@ 33
circle 33
crosswalk 33
crying 33
dinner 33
ely 33
fight 33
infant 33
makeup 33
matching 33
mural 33
produce 33
pulled 33
racket 33
runners 33
seat 33
ses 33
ste@@ 33
stra@@ 33
straw 33
taken 33
trampoline 33
tricks 33
ur@@ 33
wooded 33
4 32
als 32
athlete 32
attempts 32
bi@@ 32
bicyclists 32
books 32
booth 32
bra@@ 32
ching 32
covering 32
cro@@ 32
cted 32
da@@ 32
dra@@ 32
driver 32
gra@@ 32
gs 32
gymnast 32
jo@@ 32
nose 32
opening 32
ors 32
performer 32
picnic 32
rest 32
sewing 32
shed 32
stuffed 32
surface 32
tes 32
trash 32
balcony 31
blouse 31
boxes 31
center 31
chases 31
cheerleaders 31
cow 31
dri@@ 31
fo@@ 31
gi@@ 31
goes 31
hammer 31
help 31
hikers 31
himself 31
il@@ 31
lan@@ 31
lays 31
lunch 31
mu@@ 31
oriental 31
pedestrians 31
pitcher 31
pushes 31
sandy 31
slope 31
softball 31
style 31
teenagers 31
third 31
tu@@ 31
use 31
bent 30
club 30
deck 30
device 30
indoor 30
kind 30
log 30
mat@@ 30
ne@@ 30
neck 30
not 30
ous 30
pulls 30
puts 30
qu@@ 30
robe 30
seven 30
sha@@ 30
skis 30
speaks 30
staircase 30
turn 30
ug@@ 30
wing 30
x 30
boats 29
bri@@ 29
chi@@ 29
d-@@ 29
dancer 29
drives 29
enjoys 29
evening 29
fallen 29
festival 29
gentlemen 29
gro@@ 29
grocery 29
heavy 29
hoop 29
lea@@ 29
marching 29
min@@ 29
overalls 29
per 29
pp@@ 29
sco@@ 29
shaking 29
swims 29
te 29
wa@@ 29
wetsuit 29
ate 28
brown-haired 28
clear 28
cloudy 28
ction 28
et 28
fair 28
fingers 28
foreign 28
garb 28
ges 28
golden 28
hangs 28
jean 28
kayak 28
khaki 28
kicks 28
laundry 28
ledge 28
lift 28
native 28
nice 28
ped 28
porch 28
pot 28
pouring 28
protective 28
puddle 28
red-haired 28
robes 28
see 28
shaving 28
sheet 28
ship 28
steep 28
stream 28
teenager 28
tracks 28
type 28
water@@ 28
waterfall 28
win@@ 28
wrapped 28
airplane 27
app@@ 27
arena 27
attached 27
backyard 27
birds 27
blocks 27
boun@@ 27
bread 27
checking 27
colors 27
ct 27
des 27
e-@@ 27
eye 27
ful 27
ked 27
kes 27
luggage 27
moves 27
opposite 27
paddling 27
palm 27
piano 27
podium 27
poles 27
put 27
reaches 27
red-hair 27
sale 27
saxophone 27
sea 27
shooting 27
shoveling 27
skirts 27
soldiers 27
spi@@ 27
ters 27
try 27
ut@@ 27
ant 26
balancing 26
bro@@ 26
camouflage 26
can@@ 26
clean 26
cones 26
curb 26
dd@@ 26
denim 26
goalie 26
gre@@ 26
hula 26
image 26
inflatable 26
j@@ 26
kiss 26
land 26
laugh 26
mound 26
part 26
pavement 26
ph@@ 26
pipe 26
polo 26
poster 26
pu@@ 26
rugby 26
sli@@ 26
soldier 26
string 26
tion 26
tongue 26
tops 26
wheelchair 26
windows 26
wine 26
z@@ 26
5 25
ans 25
ber@@ 25
bikers 25
bottom 25
buying 25
col@@ 25
com@@ 25
courtyard 25
curly 25
cyclists 25
eats 25
ent 25
fabric 25
fall 25
fans 25
fast 25
flight 25
floating 25
frame 25
fresh 25
happily 25
head@@ 25
id 25
inter@@ 25
juggling 25
keyboard 25
laughs 25
married 25
mer@@ 25
motorcycles 25
musician 25
ned 25
professional 25
raft 25
railroad 25
riders 25
sea@@ 25
sell 25
shade 25
sport 25
step 25
stool 25
student 25
swimsuit 25
tools 25
tractor 25
ty 25
walls 25
york 25
acoustic 24
appear 24
backwards 24
bandanna 24
bubble 24
bucking 24
bun@@ 24
carriage 24
cha@@ 24
cheering 24
closeup 24
color 24
cs 24
either 24
ery 24
floral 24
garbage 24
ger 24
goods 24
groom 24
guard 24
har@@ 24
hurdle 24
ist 24
jerseys 24
knee 24
living 24
marketplace 24
multiple 24
nap 24
ops 24
pair 24
pajamas 24
par@@ 24
pin@@ 24
pit 24
plane 24
plant 24
santa 24
scaffolding 24
shown 24
sized 24
socks 24
spray 24
surf 24
suspended 24
th 24
touching 24
tube 24
vely 24
vers 24
yo@@ 24
you 24
advertisement 23
airport 23
animals 23
aring 23
backpacks 23
bank 23
bling 23
bs 23
but@@ 23
cam@@ 23
caught 23
chain 23
climber 23
dining 23
direction 23
dry 23
du@@ 23
ears 23
elling 23
em@@ 23
escalator 23
fenced 23
fully 23
german 23
hay 23
hood 23
hooded 23
japanese 23
kneels 23
landscape 23
let 23
long-haired 23
magazine 23
paints 23
pes 23
plaza 23
pped 23
raised 23
serving 23
sheep 23
sted 23
sti@@ 23
sto@@ 23
stove 23
towel 23
underwater 23
ver 23
wal@@ 23
welding 23
wer 23
! 22
age 22
amusement 22
ary 22
athletic 22
au@@ 22
bending 22
bmx 22
boards 22
bow 22
brush 22
brushing 22
bur@@ 22
candy 22
cat@@ 22
caucasian 22
checkered 22
decorated 22
defen@@ 22
dro@@ 22
ea@@ 22
ear@@ 22
examining 22
fu@@ 22
ged 22
gravel 22
grilling 22
ic 22
individual 22
ings 22
ja@@ 22
ki@@ 22
lines 22
mom 22
money 22
neon 22
ning 22
obstacle 22
op@@ 22
operating 22
orchestra 22
participating 22
pit@@ 22
post 22
read 22
referee 22
scra@@ 22
seems 22
shaped 22
shes 22
summer 22
teacher 22
things 22
thrown 22
ur 22
vehicles 22
wed 22
wo@@ 22
ze 22
( 21
ars 21
attempt 21
atv 21
barbecue 21
benches 21
bles 21
brea@@ 21
button 21
chest 21
cker 21
compete 21
cone 21
crouches 21
dol@@ 21
f 21
feeding 21
firefighters 21
form@@ 21
ger@@ 21
good 21
haircut 21
hallway 21
harness 21
heels 21
hitting 21
ite 21
lin@@ 21
lu@@ 21
map 21
me 21
mobile 21
muddy 21
ol@@ 21
only 21
opponent 21
passengers 21
peace 21
photographs 21
practice 21
presentation 21
pri@@ 21
print 21
racer 21
rec@@ 21
rests 21
ropes 21
rowing 21
scuba 21
sets 21
sharing 21
sk@@ 21
sol@@ 21
sticking 21
studio 21
sub@@ 21
t-shirts 21
tourists 21
tub 21
tur@@ 21
turning 21
ul@@ 21
ve@@ 21
ver@@ 21
wagon 21
war@@ 21
) 20
action 20
ad 20
aged 20
also 20
amp 20
bars 20
bathroom 20
boxing 20
but 20
carpet 20
ced 20
chase 20
cleans 20
craft 20
dish 20
dr@@ 20
drummer 20
ear 20
eight 20
et@@ 20
figure 20
fin@@ 20
fly 20
fro@@ 20
fruits 20
garage 20
gas 20
ge@@ 20
groups 20
guitars 20
hall 20
headscarf 20
ity 20
je@@ 20
jumpsuit 20
jungle 20
kers 20
ler 20
loading 20
long-sleeved 20
machinery 20
model 20
motocross 20
motorcyclist 20
mustache 20
na@@ 20
navy 20
ner 20
out@@ 20
patio 20
pen 20
policeman 20
pull 20
racetrack 20
sandwich 20
she@@ 20
sink 20
skateboards 20
snowboard 20
snowboarding 20
speech 20
sporting 20
sses 20
ssion 20
start 20
sters 20
stones 20
tile 20
tool 20
tor@@ 20
turns 20
viewing 20
vo@@ 20
we 20
wide 20
wire 20
wn 20
wor@@ 20
y-@@ 20
ac@@ 19
ahead 19
ally 19
ard 19
assi@@ 19
ati@@ 19
atten@@ 19
baskets 19
bath 19
beam 19
beverage 19
boardwalk 19
bushes 19
cally 19
case 19
ceiling 19
cing 19
ck@@ 19
coach 19
college 19
cricket 19
crouching 19
dark-skinned 19
dge 19
dis@@ 19
discussion 19
dune 19
eastern 19
ered 19
fancy 19
first 19
gers 19
great 19
gri@@ 19
half 19
herself 19
hillside 19
hol@@ 19
horseback 19
indoors 19
intersection 19
lane 19
lar 19
leaving 19
medical 19
member 19
ming 19
museum 19
narrow 19
neighborhood 19
observe 19
petting 19
pla@@ 19
possibly 19
puck 19
res 19
routine 19
ry 19
sells 19
shoot 19
slides 19
smoke 19
snow-covered 19
stopped 19
swimmer 19
t-@@ 19
tag 19
tattooed 19
tents 19
tin@@ 19
trumpet 19
tw@@ 19
um@@ 19
vendors 19
x@@ 19
air@@ 18
ali@@ 18
apple 18
army 18
birthday 18
bly 18
bottles 18
buckets 18
buy 18
cans 18
card 18
cardboard 18
celebrating 18
choir 18
clay 18
clo@@ 18
container 18
cts 18
dishes 18
el 18
entrance 18
excited 18
fencing 18
fire@@ 18
folding 18
funny 18
gr@@ 18
guitarist 18
h 18
hang 18
helps 18
hospital 18
hugs 18
lay 18
live 18
mall 18
maroon 18
microphones 18
mixing 18
mostly 18
nets 18
ns 18
ornate 18
outstretched 18
pen@@ 18
pieces 18
pl@@ 18
position 18
protest 18
puppy 18
r 18
rela@@ 18
rubber 18
sal@@ 18
saw 18
seats 18
shepherd 18
skates 18
slo@@ 18
song 18
squatting 18
tre@@ 18
uniformed 18
up@@ 18
ut 18
va@@ 18
vil 18
wheels 18
youth 18
ys 18
apartment 17
ates 17
backs 17
balance 17
bear 17
belt 17
bin 17
blows 17
bowls 17
broom 17
calf 17
cla@@ 17
cloth@@ 17
colle@@ 17
coloring 17
comfor@@ 17
conference 17
coo@@ 17
ctors 17
cuts 17
derby 17
dire@@ 17
doctor 17
doors 17
dreadlocks 17
dy 17
ethnic 17
fil@@ 17
finger 17
finish 17
firetruck 17
fisherman 17
fle@@ 17
flipping 17
float 17
fol@@ 17
furniture 17
ga@@ 17
ght 17
got 17
grinding 17
ha@@ 17
hair@@ 17
handstand 17
heart 17
inspecting 17
item 17
jockey 17
kn@@ 17
leading 17
library 17
mohawk 17
moment 17
more 17
ny 17
pan 17
pick 17
pil@@ 17
pine 17
polka 17
por@@ 17
reflective 17
ribbon 17
rink 17
rough 17
rural 17
scenery 17
sleeveless 17
smokes 17
space 17
spinning 17
spraying 17
stack 17
stares 17
storefront 17
stretching 17
stripes 17
stroll 17
stru@@ 17
sw@@ 17
swe@@ 17
sword 17
tattoos 17
tered 17
tho@@ 17
tly 17
unds 17
uni@@ 17
vegetable 17
ven 17
zing 17
&amp; 16
-up 16
0 16
1 16
act 16
ance 16
approaching 16
balances 16
balding 16
banner 16
barrel 16
bass 16
bat@@ 16
batter 16
beg@@ 16
bow@@ 16
broken 16
candles 16
cap@@ 16
carving 16
castle 16
chalk 16
chefs 16
clad 16
computers 16
crane 16
crew 16
dar@@ 16
dead 16
discussing 16
duck 16
emergency 16
ence 16
ey@@ 16
factory 16
farm 16
fix 16
flip-flops 16
fluffy 16
folded 16
following 16
free 16
ft 16
gui@@ 16
gymnasium 16
horn 16
hotel 16
houses 16
il 16
instru@@ 16
intently 16
jewelry 16
ke@@ 16
kite 16
lamp 16
lifting 16
listens 16
london 16
ments 16
mon@@ 16
moped 16
motorbike 16
naked 16
nighttime 16
objects 16
oping 16
overhead 16
parents 16
pigeons 16
pitch 16
pizza 16
plates 16
pol@@ 16
rainy 16
raises 16
ral 16
reach 16
sides 16
smo@@ 16
snack 16
sofa 16
speed 16
spread 16
stairway 16
starting 16
surrounding 16
sweat@@ 16
tain 16
television 16
tied 16
tourist 16
turned 16
ures 16
ward 16
warm 16
&apos;t 15
-down 15
-like 15
.@@ 15
1@@ 15
3@@ 15
advertising 15
am 15
ami@@ 15
amongst 15
arm@@ 15
ballerina 15
barber 15
beneath 15
bla@@ 15
blow 15
branch 15
called 15
cameras 15
catcher 15
come 15
comple@@ 15
control 15
corn 15
crosses 15
cut@@ 15
directions 15
downtown 15
electronic 15
elephant 15
en 15
engaged 15
engine 15
ens 15
ent@@ 15
fan 15
fireman 15
flowered 15
follows 15
forward 15
fr@@ 15
fre@@ 15
gg@@ 15
go-@@ 15
headband 15
hel@@ 15
her@@ 15
hits 15
hoops 15
hun@@ 15
ing@@ 15
ir@@ 15
keep 15
liquid 15
lit@@ 15
lounging 15
material 15
motor@@ 15
my 15
name 15
necklace 15
newborn 15
numerous 15
observing 15
oc@@ 15
odd 15
ori@@ 15
papers 15
partially 15
participate 15
patient 15
pea@@ 15
photos 15
pottery 15
present 15
protesting 15
que 15
raising 15
redheaded 15
relax 15
repair 15
security 15
shades 15
shaved 15
sho@@ 15
shovels 15
smaller 15
ssed 15
ssing 15
stre@@ 15
sur@@ 15
swimmers 15
tan@@ 15
taxi 15
tch 15
teammate 15
terrain 15
tex@@ 15
theater 15
thin 15
til@@ 15
tle 15
training 15
trucks 15
unicycle 15
vie@@ 15
village 15
ving 15
whi@@ 15
white-@@ 15
wife 15
wings 15
wrestle 15
zed 15
admiring 14
ages 14
airborne 14
aisle 14
angel 14
athletes 14
biking 14
bil@@ 14
billboard 14
binoculars 14
black@@ 14
book@@ 14
cal@@ 14
calm 14
camel 14
cape 14
caps 14
cards 14
care 14
carry 14
casual 14
charac@@ 14
cli@@ 14
cobblestone 14
conven@@ 14
converse 14
cook 14
cool 14
crafts 14
cru@@ 14
desig@@ 14
donkey 14
eling 14
expre@@ 14
fake 14
falls 14
firemen 14
fl@@ 14
fra@@ 14
fri@@ 14
gar@@ 14
gh@@ 14
gift 14
gla@@ 14
gli@@ 14
glo@@ 14
glove 14
grand@@ 14
guards 14
guns 14
homeless 14
hu@@ 14
hug 14
ily 14
im 14
interacting 14
job 14
lar@@ 14
leads 14
len@@ 14
lounge 14
machines 14
mid 14
mmed 14
most 14
oes 14
oms 14
passenger 14
peering 14
performers 14
photographed 14
pillow 14
point 14
pretty 14
pur@@ 14
push 14
races 14
rainbow 14
receiving 14
repairs 14
rings 14
rollerblades 14
rows 14
sam@@ 14
scarves 14
ser@@ 14
shakes 14
share 14
shi@@ 14
shining 14
shops 14
silly 14
skiers 14
slee@@ 14
slightly 14
spar@@ 14
splashes 14
spo@@ 14
spon@@ 14
sprinkler 14
star 14
steel 14
stic 14
story 14
straight 14
teaching 14
ties 14
tower 14
trailer 14
trunk 14
upon 14
uts 14
wading 14
weaving 14
wh@@ 14
whilst 14
wit@@ 14
world 14
xes 14
yed 14
2@@ 13
8 13
ado@@ 13
ari@@ 13
ast 13
ator 13
attention 13
autumn 13
ban@@ 13
bare 13
barrier 13
bleachers 13
browsing 13
burgundy 13
bystanders 13
ca 13
carts 13
ceremony 13
chainsaw 13
check 13
checks 13
cheer 13
cle@@ 13
coaster 13
comes 13
consisting 13
craw@@ 13
cups 13
customer 13
dad 13
dding 13
debris 13
dimly 13
dough 13
drill 13
dum@@ 13
dusk 13
eggs 13
els 13
enter@@ 13
entering 13
ents 13
examines 13
farmer 13
filling 13
fli@@ 13
flips 13
flute 13
form 13
four@@ 13
gestures 13
greyhound 13
grin@@ 13
groceries 13
headed 13
high-@@ 13
hoo@@ 13
if 13
ines 13
ka@@ 13
keys 13
knit 13
lacrosse 13
landing 13
laptops 13
le-@@ 13
lead 13
lifted 13
meeting 13
messy 13
mic 13
modern 13
nature 13
observes 13
off@@ 13
official 13
ones 13
order 13
oven 13
overweight 13
paddle 13
paddles 13
part@@ 13
pe 13
places 13
plan@@ 13
praying 13
que@@ 13
ren@@ 13
rod 13
sack 13
sailing 13
science 13
shine 13
similar 13
sks 13
sm@@ 13
sneakers 13
some@@ 13
son@@ 13
spoon 13
spotted 13
stance 13
stomach 13
studying 13
tail 13
target 13
tea 13
telephone 13
tending 13
test 13
ther 13
tires 13
top@@ 13
tropical 13
ung 13
vel@@ 13
was 13
waterfront 13
waterway 13
wel@@ 13
wheelbarrow 13
5@@ 12
6 12
accompani@@ 12
alleyway 12
anti@@ 12
applying 12
arti@@ 12
atta@@ 12
attending 12
bagpipes 12
ballet 12
bamboo 12
banan@@ 12
barri@@ 12
beanie 12
been 12
beverages 12
bite 12
biting 12
blankets 12
blur@@ 12
boulder 12
bricks 12
cello 12
char@@ 12
chicken 12
clapping 12
co 12
comm@@ 12
complete 12
cooks 12
countryside 12
covers 12
cowboys 12
cti@@ 12
der@@ 12
dering 12
diver 12
doll 12
domin@@ 12
drive 12
dust 12
entertain@@ 12
exam@@ 12
excit@@ 12
exercise 12
exhibit 12
far 12
far@@ 12
feath@@ 12
forehead 12
games 12
ggy 12
give 12
gymnastics 12
handing 12
heading 12
highway 12
inspects 12
iron 12
ities 12
iting 12
jack@@ 12
juice 12
kayaks 12
kil@@ 12
knees 12
knife 12
lecture 12
listen 12
ll 12
load 12
long-sleeve 12
medi@@ 12
merchandise 12
mes 12
mming 12
monument 12
movie 12
newly 12
newspapers 12
off-@@ 12
olympics 12
organi@@ 12
os 12
ously 12
pack 12
paint@@ 12
paperwork 12
para@@ 12
parachut@@ 12
pass@@ 12
patterned 12
pigtails 12
pillows 12
placing 12
presenting 12
puppies 12
ran@@ 12
repairing 12
rickshaw 12
rollerblading 12
run@@ 12
scooters 12
screaming 12
seem 12
serves 12
shadows 12
shirted 12
shoppers 12
sion 12
skater 12
skaters 12
ski@@ 12
sna@@ 12
snowsuit 12
so 12
spanish 12
sprinkl@@ 12
stare 12
still 12
stops 12
street@@ 12
suitcase 12
sweeps 12
tackle 12
tape 12
teal 12
teen 12
texas 12
thumbs 12
tired 12
tomat@@ 12
tossing 12
touches 12
tray 12
tted 12
tv 12
umpire 12
venue 12
visible 12
visiting 12
wares 12
wheelie 12
wild 12
wires 12
wra@@ 12
wrap 12
wrestler 12
yer 12
yoga 12
zes 12
0@@ 11
2012 11
adjusting 11
adv@@ 11
african-american 11
alling 11
aqu@@ 11
arcade 11
arch 11
are@@ 11
artwork 11
asians 11
assem@@ 11
ations 11
auditorium 11
backdrop 11
banjo 11
bit 11
black-haired 11
blin@@ 11
bor@@ 11
bra 11
bron@@ 11
burning 11
cage 11
camping 11
carefully 11
ce-@@ 11
celebration 11
chatting 11
cheek 11
chess 11
china 11
closely 11
company 11
constru@@ 11
cool@@ 11
coun@@ 11
couples 11
creek 11
crossed 11
crouched 11
cycling 11
dan@@ 11
ddle 11
deli@@ 11
den@@ 11
department 11
descent 11
din@@ 11
dives 11
dj 11
don@@ 11
dot 11
drawn 11
dress@@ 11
drib@@ 11
dusty 11
east 11
eglasses 11
elev@@ 11
enthusia@@ 11
ets 11
fashion 11
fashioned 11
fel@@ 11
ffs 11
finished 11
firefighter 11
floats 11
focused 11
formation 11
gathers 11
gle 11
haired 11
hur@@ 11
hut 11
ic@@ 11
ies 11
injured 11
involved 11
jet 11
kayaking 11
khakis 11
kie 11
larger 11
laundromat 11
leaf 11
learning 11
lifts 11
lighted 11
lips 11
location 11
logs 11
loo@@ 11
loom 11
magazines 11
maneu@@ 11
med 11
meet 11
mid-@@ 11
motorcyclists 11
motorized 11
mower 11
mp@@ 11
mug 11
nail 11
ol 11
oned 11
ong 11
opens 11
own 11
parachute 11
passersby 11
pat@@ 11
patch 11
pick@@ 11
picks 11
pilot 11
placed 11
planting 11
play@@ 11
playfully 11
ponytail 11
poor 11
pop@@ 11
posed 11
pper 11
practices 11
printed 11
rally 11
range 11
rapids 11
recei@@ 11
record 11
regi@@ 11
rice 11
rollerskating 11
roun@@ 11
salon 11
scape 11
scouts 11
see@@ 11
sel@@ 11
sele@@ 11
shoreline 11
sno@@ 11
snowshoes 11
soda 11
speak 11
sprin@@ 11
stan@@ 11
stle 11
strange 11
sty 11
sunlight 11
supplies 11
surgery 11
suspenders 11
swimsuits 11
tackling 11
tee 11
teens 11
ten@@ 11
ter@@ 11
tights 11
tiny 11
torch 11
traveling 11
tricycle 11
trip 11
trolley 11
tun@@ 11
turquoise 11
und 11
underwear 11
unk 11
ute 11
viol@@ 11
washer 11
watched 11
ways 11
weap@@ 11
weather 11
wered 11
wind@@ 11
wning 11
xi@@ 11
yarn 11
# 10
9@@ 10
activity 10
ai@@ 10
america 10
amidst 10
ani@@ 10
apart 10
approaches 10
arch@@ 10
arri@@ 10
asia 10
bag@@ 10
belts 10
ber 10
blazer 10
blood 10
bouquet 10
branches 10
bre@@ 10
brin@@ 10
brother 10
button@@ 10
camera@@ 10
canvas 10
casually 10
celebrate 10
chalkboard 10
chan@@ 10
cheese 10
cher 10
chopping 10
cial 10
ckets 10
clim@@ 10
coa@@ 10
collared 10
condu@@ 10
contraption 10
cop 10
creating 10
cross@@ 10
ctions 10
ctor 10
cul@@ 10
cup@@ 10
cute 10
ddy 10
decorative 10
demonstra@@ 10
desc@@ 10
dies 10
displaying 10
displays 10
done 10
dre@@ 10
driveway 10
earphones 10
eing 10
ell 10
embracing 10
emer@@ 10
ends 10
eri@@ 10
experiment 10
ey 10
facility 10
fair@@ 10
feat@@ 10
fer@@ 10
ff@@ 10
finishing 10
floo@@ 10
foot@@ 10
fore@@ 10
frozen 10
fur 10
furry 10
gallery 10
gaze 10
gazes 10
goat 10
gray-haired 10
handrail 10
headdress 10
hear@@ 10
helicopter 10
hiding 10
hike 10
hotdog 10
icy 10
ie 10
incline 10
inten@@ 10
involving 10
john 10
ju@@ 10
juggles 10
kno@@ 10
laden 10
late 10
laun@@ 10
leaf@@ 10
leap 10
leggings 10
lens 10
leotard 10
less 10
lighting 10
lining 10
link 10
lled 10
lobby 10
located 10
maintenance 10
march 10
mel@@ 10
mexican 10
monitor 10
mop 10
morning 10
mul@@ 10
multi@@ 10
nam@@ 10
nee@@ 10
ney 10
numbers 10
nur@@ 10
nurses 10
od 10
oper@@ 10
oranges 10
ot@@ 10
ow@@ 10
pads 10
peeking 10
pers 10
pin 10
pins 10
played 10
ple 10
portrait 10
pots 10
pra@@ 10
process 10
products 10
quarterback 10
quickly 10
racers 10
rafting 10
rea@@ 10
retrie@@ 10
rin@@ 10
roadside 10
rooftop 10
row@@ 10
scaffold 10
scending 10
scre@@ 10
seagul@@ 10
second 10
sel 10
sem@@ 10
ser 10
serve 10
shape 10
shar@@ 10
shel@@ 10
shing 10
sideways 10
silhouette 10
single 10
sive 10
speaker 10
spect@@ 10
sprayed 10
ssive 10
stall 10
star@@ 10
stat@@ 10
stepping 10
ster@@ 10
stilts 10
storm 10
stroke 10
stu@@ 10
super@@ 10
surfs 10
them@@ 10
thers 10
thin@@ 10
thumb 10
toddlers 10
touch 10
transportation 10
trashcan 10
tribal 10
twir@@ 10
u 10
upward 10
valley 10
walked 10
washes 10
wer@@ 10
whom 10
will 10
wn@@ 10
wns 10
work@@ 10
workout 10
workshop 10
zens 10
zi@@ 10
4@@ 9
ab@@ 9
able 9
adjusts 9
afternoon 9
almost 9
appro@@ 9
aprons 9
atm 9
attractive 9
bal@@ 9
barbe@@ 9
bath@@ 9
bathtub 9
bea@@ 9
begins 9
bel@@ 9
belongings 9
bends 9
beret 9
bicycling 9
bin@@ 9
blue-@@ 9
boarding 9
booths 9
bor 9
bouncing 9
boxer 9
brass 9
breakdancing 9
brushes 9
built 9
bull@@ 9
bush@@ 9
butterfly 9
cab 9
cakes 9
camp 9
canadian 9
cann@@ 9
capped 9
cast 9
cellphones 9
cer@@ 9
checkers 9
chewing 9
chocolate 9
chopsticks 9
circular 9
classic 9
cleaner 9
cloud 9
clouds 9
cola 9
color@@ 9
colum@@ 9
concentra@@ 9
containing 9
cover 9
crates 9
cri@@ 9
crowds 9
curly-haired 9
cy 9
decora@@ 9
decorations 9
design 9
designs 9
dig@@ 9
digital 9
diner 9
discu@@ 9
displayed 9
dive 9
dragging 9
draw 9
ducks 9
dumpster 9
dun@@ 9
ell@@ 9
elmo 9
employees 9
ep@@ 9
ering 9
even 9
exerci@@ 9
expl@@ 9
farmers 9
featuring 9
fell 9
fen@@ 9
fier 9
fishes 9
foc@@ 9
foliage 9
french 9
gardening 9
gazing 9
gesturing 9
gged 9
grabbing 9
grabs 9
gradu@@ 9
graph@@ 9
green@@ 9
gy@@ 9
handed 9
handle 9
hea@@ 9
heavily 9
highchair 9
hills 9
hind 9
horizon 9
hudd@@ 9
illumin@@ 9
ils 9
im@@ 9
images 9
ining 9
interesting 9
jeep 9
jogs 9
joy 9
jumped 9
jumper 9
kel@@ 9
kilt 9
kit@@ 9
kly 9
known 9
ky 9
league 9
lets 9
lie 9
love 9
mark 9
mechani@@ 9
men@@ 9
menu 9
monkey 9
motion 9
motor 9
muzzle 9
muzzled 9
news 9
obser@@ 9
odles 9
olympic 9
operates 9
opy 9
ou@@ 9
painter 9
pale 9
parasailing 9
pathway 9
pattern 9
peer 9
pencil 9
pet 9
photograph@@ 9
pinata 9
plo@@ 9
post@@ 9
potato 9
power 9
protesters 9
pt 9
pumpkin 9
raincoat 9
rav@@ 9
really 9
recording 9
reflection 9
relea@@ 9
remo@@ 9
rifle 9
riot 9
river@@ 9
road@@ 9
sad 9
sand@@ 9
sawing 9
scar@@ 9
scenic 9
scent 9
score 9
section 9
service 9
shiel@@ 9
shiny 9
shoo@@ 9
short-haired 9
show@@ 9
sit@@ 9
sking 9
sledding 9
sniffing 9
soap 9
sorting 9
sparring 9
stacked 9
stoop 9
strapped 9
strolls 9
stump 9
sty@@ 9
suit@@ 9
sum@@ 9
sure 9
swor@@ 9
tags 9
task 9
techni@@ 9
tends 9
termin@@ 9
than 9
thing 9
ticket 9
tight 9
tiled 9
tips 9
toi@@ 9
tournament 9
treat 9
trench 9
tripod 9
tru@@ 9
tug@@ 9
turban 9
ture 9
two-@@ 9
types 9
ue 9
um 9
unique 9
upset 9
verti@@ 9
wait@@ 9
well-@@ 9
wheeler 9
wig 9
wind 9
wr@@ 9
writes 9
yel@@ 9
z 9
- 8
-colored 8
11 8
abandoned 8
acce@@ 8
accident 8
ach 8
acrobatic 8
adverti@@ 8
ale 8
amount 8
and@@ 8
ands 8
angle 8
aquarium 8
artists 8
ately 8
babies 8
banners 8
barefooted 8
barre@@ 8
bartender 8
batman 8
beads 8
bear@@ 8
because 8
bedroom 8
bell@@ 8
bers 8
bled 8
break@@ 8
bridesmaids 8
brief@@ 8
buil@@ 8
bundle 8
buried 8
camels 8
campfire 8
canal 8
candle 8
canoes 8
carrier 8
cases 8
casino 8
challen@@ 8
chee@@ 8
cheerleading 8
cherry 8
chie@@ 8
cigar 8
cigar@@ 8
citi@@ 8
ck-@@ 8
clar@@ 8
clowns 8
cluttered 8
columns 8
commercial 8
communi@@ 8
companion 8
completed 8
conductor 8
congreg@@ 8
conne@@ 8
cover@@ 8
crashing 8
crayons 8
create 8
cries 8
crow@@ 8
darkened 8
daytime 8
deci@@ 8
deer 8
denti@@ 8
deser@@ 8
destination 8
dex 8
dinosau@@ 8
directing 8
dle 8
dly 8
doesn 8
down@@ 8
downhill 8
draped 8
draws 8
easel 8
edly 8
ee 8
egg 8
elabo@@ 8
eled 8
em 8
employee 8
envi@@ 8
es@@ 8
establishment 8
europe 8
european 8
every@@ 8
fat 8
fields 8
figures 8
filming 8
finger@@ 8
flannel 8
flower@@ 8
foam 8
followed 8
foods 8
ford 8
forested 8
fort 8
fountains 8
free@@ 8
fs 8
fting 8
fun@@ 8
gesture 8
gn@@ 8
gown 8
grab 8
graffiti@@ 8
grand 8
grasp@@ 8
had 8
halloween 8
hammering 8
hammock 8
hardwood 8
harmonica 8
harve@@ 8
hau@@ 8
hawaiian 8
hispani@@ 8
histor@@ 8
hit@@ 8
homemade 8
hor@@ 8
hum@@ 8
human 8
hydrant 8
identi@@ 8
iling 8
ility 8
imp@@ 8
india 8
industrial 8
inning 8
ir 8
jockeys 8
judges 8
kar@@ 8
kaya@@ 8
ker@@ 8
kick@@ 8
kisses 8
kne@@ 8
knee-@@ 8
ko@@ 8
labeled 8
laboratory 8
lanterns 8
lay@@ 8
lem@@ 8
lers 8
ley 8
lic 8
lively 8
loaded 8
lon@@ 8
looked 8
lor 8
lou@@ 8
ly-@@ 8
masks 8
mate 8
medium 8
mem@@ 8
mess 8
metal@@ 8
midst 8
mix 8
mix@@ 8
mixer 8
monopoly 8
moti@@ 8
mountain@@ 8
much 8
murky 8
muscular 8
musta@@ 8
nails 8
napping 8
navigates 8
nel 8
notebook 8
notes 8
ob@@ 8
oli@@ 8
oring 8
ox@@ 8
package 8
packed 8
packing 8
patro@@ 8
pay 8
peers 8
photographers 8
plain 8
pocket 8
positi@@ 8
pours 8
pow@@ 8
ppy 8
product 8
projector 8
protect 8
punch 8
purses 8
rate 8
redhead 8
religious 8
rit@@ 8
rock@@ 8
roller-@@ 8
roo@@ 8
rub@@ 8
rug 8
ry-@@ 8
sailboat 8
say 8
scrubs 8
sear@@ 8
sen@@ 8
series 8
shadow 8
shaggy 8
shelf 8
shing@@ 8
shor@@ 8
shout@@ 8
side@@ 8
signing 8
sil@@ 8
sin@@ 8
sk 8
skies 8
skills 8
skinny 8
skul@@ 8
sla@@ 8
sle@@ 8
somewhere 8
spa@@ 8
spat@@ 8
speeding 8
spins 8
spla@@ 8
splashed 8
spot 8
spotlight 8
sprays 8
spring 8
squeezing 8
ssions 8
staff 8
stant 8
state 8
stati@@ 8
ston@@ 8
stream@@ 8
stretches 8
stringed 8
strolling 8
stry 8
stuck 8
stuff 8
surgical 8
synchronized 8
table@@ 8
tackled 8
tal@@ 8
tation 8
tching 8
teammates 8
tery 8
tic 8
times 8
too 8
toothbrush 8
tour 8
trains 8
transit 8
travel 8
tug-of-war 8
tum@@ 8
tuxe@@ 8
tying 8
underground 8
unhappy 8
unusual 8
ured 8
usly 8
uti@@ 8
variety 8
vending 8
victory 8
vintage 8
waist 8
waiter 8
walmart 8
war 8
warehouse 8
waterskiing 8
wheeled 8
when 8
who@@ 8
win 8
won@@ 8
ya@@ 8
zzy 8
6@@ 7
7 7
8@@ 7
9 7
? 7
acting 7
activ@@ 7
ag@@ 7
ales 7
amp@@ 7
ant@@ 7
ants 7
arran@@ 7
arrow 7
ass@@ 7
attle 7
bands 7
bend 7
berry 7
blu@@ 7
bon@@ 7
bongo 7
box@@ 7
british 7
broad 7
buffet 7
bul@@ 7
bush 7
busine@@ 7
cari@@ 7
cel@@ 7
cen@@ 7
check@@ 7
cheerleader 7
chers 7
chil@@ 7
chin 7
cle 7
clut@@ 7
collie 7
competiti@@ 7
congre@@ 7
cons@@ 7
cyc@@ 7
cycles 7
dam@@ 7
day@@ 7
deli 7
demonstration 7
den 7
die 7
dir@@ 7
dit@@ 7
diti@@ 7
earth 7
eds 7
ele@@ 7
electri@@ 7
elementary 7
embra@@ 7
end@@ 7
ently 7
ese 7
exhi@@ 7
explo@@ 7
extre@@ 7
facial 7
fedora 7
festi@@ 7
fetti 7
fit@@ 7
flu@@ 7
fron@@ 7
gage 7
gal@@ 7
ght@@ 7
gol@@ 7
greyho@@ 7
hal@@ 7
ham 7
hamm@@ 7
happ@@ 7
holi@@ 7
hop@@ 7
hotdogs 7
ight 7
intervie@@ 7
irs 7
iti@@ 7
itt@@ 7
jenga 7
kings 7
laid 7
land@@ 7
lands 7
lau@@ 7
legged 7
leopard 7
let@@ 7
level 7
licking 7
life@@ 7
lion 7
lling 7
loa@@ 7
logo 7
lush 7
ma 7
mag@@ 7
maid 7
main 7
marble 7
marked 7
marker 7
mascot 7
may 7
maybe 7
mcdonald 7
meadow 7
measuring 7
medieval 7
miniat@@ 7
mit@@ 7
mitt 7
mm@@ 7
monitors 7
monk 7
mountainous 7
mounted 7
mouths 7
mowing 7
musli@@ 7
named 7
nat@@ 7
necklaces 7
newlywed 7
nine 7
nude 7
nun 7
oil 7
olo@@ 7
ols 7
om 7
oni@@ 7
open@@ 7
ora@@ 7
ordering 7
orned 7
our 7
p-@@ 7
pad 7
pans 7
parent 7
patrons 7
peaks 7
pee@@ 7
person@@ 7
picket 7
pict@@ 7
pigeon 7
pirate 7
plea@@ 7
pointed 7
poli@@ 7
policemen 7
pony 7
poodle 7
pop 7
pops 7
prepared 7
presents 7
prints 7
profession@@ 7
proje@@ 7
prote@@ 7
pum@@ 7
punching 7
puppet 7
purchase 7
pyramid 7
quet 7
quiet 7
radio 7
rafts 7
rai@@ 7
railings 7
rails 7
raining 7
reception 7
refle@@ 7
repor@@ 7
resort 7
return 7
rise 7
rist@@ 7
rollers 7
rollerskates 7
rolls 7
ronment 7
rugs 7
rustic 7
s-@@ 7
sail 7
scientist 7
scopes 7
sculptures 7
seafood 7
seating 7
sements 7
semi-@@ 7
separate 7
shawl 7
shift 7
shower 7
sidelines 7
sig@@ 7
silhouetted 7
skil@@ 7
skydiving 7
skyline 7
sl@@ 7
slacks 7
sleeves 7
snacks 7
snor@@ 7
snowboards 7
social 7
sociali@@ 7
sold 7
sparkl@@ 7
speeds 7
squats 7
ssage 7
starring 7
ste 7
stores 7
striking 7
strings 7
stripe 7
stro@@ 7
strugg@@ 7
styli@@ 7
sunbathing 7
supermarket 7
support 7
surfers 7
sy 7
ta 7
tack@@ 7
tails 7
tains 7
tarp 7
temple 7
ten 7
thedra@@ 7
thick 7
though 7
ths 7
tiger 7
ton@@ 7
topless 7
tracksuit 7
travels 7
treadmill 7
tree-@@ 7
tress 7
tro 7
trophy 7
trotting 7
tton 7
tubes 7
turkey 7
tutu 7
typing 7
ual 7
uble 7
ugh 7
ultimate 7
ume 7
ung@@ 7
unter@@ 7
upwards 7
usa 7
usband 7
used 7
vacuum 7
vacuuming 7
val 7
vau@@ 7
ven@@ 7
vering 7
vers@@ 7
vibrant 7
videota@@ 7
vil@@ 7
visor 7
warming 7
wash 7
watermelons 7
waterski@@ 7
wea@@ 7
wei@@ 7
weigh@@ 7
were 7
wheel@@ 7
wilderness 7
woodland 7
workman 7
wrestlers 7
written 7
xe 7
xylophone 7
year 7
zone 7
10 6
acti@@ 6
afri@@ 6
alls 6
ame 6
ang@@ 6
any 6
appar@@ 6
appe@@ 6
ards 6
arrangement 6
ath 6
ath@@ 6
ation@@ 6
attra@@ 6
aus 6
aus@@ 6
auto@@ 6
badminton 6
band@@ 6
bathro@@ 6
bb@@ 6
beam@@ 6
bikinis 6
boarder 6
bodysuit 6
boogie 6
botto@@ 6
br@@ 6
broch@@ 6
bulldozer 6
bum@@ 6
cade 6
camp@@ 6
canyon 6
celebra@@ 6
cer 6
ceremon@@ 6
cess 6
cher@@ 6
cho@@ 6
circus 6
cl@@ 6
clu@@ 6
compet@@ 6
complet@@ 6
cray@@ 6
cular 6
da 6
dessert 6
dia@@ 6
dru@@ 6
ei@@ 6
ena@@ 6
ep 6
fashi@@ 6
fer 6
ffy 6
fish@@ 6
fit 6
fts 6
ggles 6
ghts 6
girl@@ 6
gne 6
gon 6
gress 6
grills 6
ha 6
han@@ 6
heav@@ 6
hen@@ 6
hil@@ 6
hin 6
horse@@ 6
ht 6
inclu@@ 6
indi@@ 6
infla@@ 6
information 6
inspe@@ 6
ise 6
ite@@ 6
ites 6
jump@@ 6
kee@@ 6
key 6
kin@@ 6
kiosk 6
lat@@ 6
legos 6
letter@@ 6
lim@@ 6
liqu@@ 6
ll@@ 6
lt 6
maj@@ 6
mani@@ 6
miami 6
micro@@ 6
mil@@ 6
mitt@@ 6
na 6
near@@ 6
night@@ 6
on-@@ 6
open-@@ 6
paci@@ 6
pack@@ 6
padd@@ 6
pain 6
parallel 6
partici@@ 6
past@@ 6
pipes 6
politi@@ 6
pon@@ 6
ponch@@ 6
popcorn 6
prin@@ 6
professor 6
quad 6
qui@@ 6
rad@@ 6
rag 6
raz@@ 6
recor@@ 6
red-@@ 6
refer@@ 6
renaiss@@ 6
ribb@@ 6
rollerskat@@ 6
ron@@ 6
rubs 6
rush 6
sail@@ 6
saris 6
sausa@@ 6
sca@@ 6
scal@@ 6
sci@@ 6
scope 6
seattle 6
senior 6
shake 6
shoe@@ 6
skateboarders 6
sleep 6
sn@@ 6
sooners 6
sor@@ 6
ssi@@ 6
ssion@@ 6
stal@@ 6
stars 6
stern 6
stir@@ 6
stor@@ 6
stretched 6
stunts 6
superman 6
supp@@ 6
surf@@ 6
swan 6
system 6
tal 6
talent 6
tat@@ 6
tau@@ 6
tem@@ 6
tern 6
terrier 6
those 6
tons 6
tr@@ 6
trans@@ 6
trav@@ 6
tuni@@ 6
ub@@ 6
ula 6
und@@ 6
university 6
vege@@ 6
verse 6
vol@@ 6
volunte@@ 6
vor@@ 6
w-@@ 6
wat@@ 6
weight 6
wet@@ 6
whe@@ 6
wild@@ 6
zombi@@ 6
zoo 6
-covered 5
00@@ 5
a-@@ 5
ach@@ 5
ama@@ 5
ameri@@ 5
angels 5
arabi@@ 5
asphalt 5
ators 5
balan@@ 5
ball@@ 5
barren 5
base@@ 5
baseman 5
basket@@ 5
bir@@ 5
boss 5
care@@ 5
carri@@ 5
chain@@ 5
champa@@ 5
cheer@@ 5
chemi@@ 5
chips 5
cir@@ 5
cit@@ 5
cockpit 5
consi@@ 5
contain@@ 5
cowgirl 5
ctive 5
cy@@ 5
dal@@ 5
das 5
dges 5
dig 5
dramati@@ 5
dunking 5
ees 5
eleph@@ 5
emp@@ 5
ender 5
enga@@ 5
er-@@ 5
ere 5
fan@@ 5
fe 5
ff 5
ffe@@ 5
ffel 5
figh@@ 5
film 5
fir@@ 5
fisher@@ 5
g-@@ 5
gen@@ 5
gent 5
geo@@ 5
gh 5
ghtly 5
gin@@ 5
gn 5
grima@@ 5
ham@@ 5
hat@@ 5
headset 5
hero 5
high@@ 5
hin@@ 5
hou@@ 5
husky 5
ian 5
ie@@ 5
iel@@ 5
in-@@ 5
ini@@ 5
intere@@ 5
ipod 5
ired 5
iro@@ 5
island 5
iz@@ 5
jack 5
japan 5
jewel@@ 5
kel 5
ket@@ 5
key@@ 5
ki 5
kies 5
kimonos 5
la 5
lasso 5
last 5
lean@@ 5
lei@@ 5
ligh@@ 5
lum@@ 5
make@@ 5
mannequin 5
mas 5
mask@@ 5
mates 5
mcdonalds 5
middle-@@ 5
mini-@@ 5
minivan 5
mirro@@ 5
mly 5
o-@@ 5
obama 5
odle 5
ope 5
operation 5
oppon@@ 5
ore@@ 5
ored 5
ped@@ 5
pedal 5
pedestri@@ 5
pel@@ 5
pers@@ 5
port 5
press@@ 5
prie@@ 5
pro 5
pub 5
pul@@ 5
punk 5
put@@ 5
rail@@ 5
rain@@ 5
re 5
red@@ 5
robo@@ 5
ros@@ 5
rut@@ 5
s. 5
sai@@ 5
san 5
san@@ 5
sat@@ 5
saxoph@@ 5
scoo@@ 5
sculp@@ 5
servi@@ 5
shado@@ 5
sky-@@ 5
smit@@ 5
snap 5
snowboar@@ 5
soa@@ 5
span@@ 5
spee@@ 5
sper@@ 5
spider@@ 5
spongebo@@ 5
sse@@ 5
stock 5
stock@@ 5
store@@ 5
stret@@ 5
stro 5
surroun@@ 5
sweatshirts 5
swim@@ 5
symbol 5
tage 5
tambour@@ 5
tar@@ 5
temp@@ 5
tend 5
text 5
thor@@ 5
thro@@ 5
tran@@ 5
ty@@ 5
under@@ 5
ups 5
uring 5
ush 5
uth 5
va 5
var@@ 5
vio@@ 5
vision 5
wake@@ 5
wakeboard 5
wards 5
watermel@@ 5
welcome 5
wood@@ 5
ysi@@ 5
za@@ 5
ze@@ 5
zen 5
zer 5
20@@ 4
admi@@ 4
aga@@ 4
all@@ 4
aller 4
ap@@ 4
astro@@ 4
ater 4
aters 4
balcon@@ 4
ballerin@@ 4
bbing 4
bl@@ 4
blan@@ 4
boston 4
boul@@ 4
brow@@ 4
bru@@ 4
bunge@@ 4
cau@@ 4
cause 4
cell@@ 4
chin@@ 4
chop@@ 4
circ@@ 4
ckens 4
clean@@ 4
coca-@@ 4
comp@@ 4
compe@@ 4
contro@@ 4
cou@@ 4
custo@@ 4
daugh@@ 4
dings 4
dio 4
dition@@ 4
drop 4
dunk 4
ed@@ 4
electro@@ 4
en-@@ 4
eng@@ 4
enjo@@ 4
equip@@ 4
erial 4
ers@@ 4
eting 4
ette 4
experi@@ 4
fal@@ 4
fic 4
fig@@ 4
fru@@ 4
ft@@ 4
fur@@ 4
gan 4
gan@@ 4
garden@@ 4
geish@@ 4
gent@@ 4
gie 4
gle@@ 4
gold-@@ 4
guit@@ 4
gymna@@ 4
half@@ 4
hawk 4
hn@@ 4
hol 4
hula-ho@@ 4
inc@@ 4
inder 4
iner 4
inline 4
ird 4
jogg@@ 4
ka 4
ken 4
kin 4
kitchena@@ 4
kitt@@ 4
kl@@ 4
lama 4
lap@@ 4
las 4
lass@@ 4
lear@@ 4
ler@@ 4
long-@@ 4
mal@@ 4
mascara 4
mea@@ 4
mega@@ 4
mick@@ 4
mini@@ 4
mo 4
mobil@@ 4
mod@@ 4
moo@@ 4
mop@@ 4
mor@@ 4
mou@@ 4
mounta@@ 4
mpe@@ 4
muzz@@ 4
nation@@ 4
ness 4
new@@ 4
nin@@ 4
nor@@ 4
noti@@ 4
of@@ 4
oklaho@@ 4
op 4
org@@ 4
ot 4
pain@@ 4
park@@ 4
parti@@ 4
participat@@ 4
pati@@ 4
patrio@@ 4
peop@@ 4
peri@@ 4
phones 4
piercing 4
pira@@ 4
plat@@ 4
poin@@ 4
power@@ 4
prepar@@ 4
propan@@ 4
prun@@ 4
pt@@ 4
pun@@ 4
puzzle 4
q 4
read@@ 4
rest@@ 4
rollerbla@@ 4
sau@@ 4
school@@ 4
sculpt@@ 4
self 4
seni@@ 4
sent@@ 4
separ@@ 4
short-@@ 4
simi@@ 4
siting 4
ske@@ 4
skel@@ 4
sky@@ 4
slam 4
smi@@ 4
sni@@ 4
solo 4
som@@ 4
sombrer@@ 4
sou@@ 4
spea@@ 4
ssen@@ 4
ssy 4
st. 4
stair@@ 4
starbucks 4
statu@@ 4
stea@@ 4
steaks 4
str@@ 4
stum@@ 4
suv 4
swi@@ 4
taining 4
taxis 4
tea@@ 4
tech@@ 4
tell@@ 4
teri@@ 4
teria 4
train@@ 4
transpor@@ 4
tt@@ 4
tures 4
twi@@ 4
twister 4
typi@@ 4
tz@@ 4
ukulele 4
una 4
unicef 4
unt 4
utensi@@ 4
veter@@ 4
volkswagen 4
vy 4
wan@@ 4
washington 4
yama@@ 4
zo@@ 4
-skinned 3
12 3
: 3
acro@@ 3
adul@@ 3
ak@@ 3
anda 3
angel@@ 3
ara@@ 3
arring 3
asi@@ 3
att@@ 3
b-@@ 3
ba 3
backpa@@ 3
beauti@@ 3
bet@@ 3
ble@@ 3
bli@@ 3
blon@@ 3
bm@@ 3
body@@ 3
boo@@ 3
bran@@ 3
bucks 3
budd@@ 3
burger 3
by@@ 3
cano@@ 3
cation 3
ciali@@ 3
cobb@@ 3
comi@@ 3
convers@@ 3
costum@@ 3
cour@@ 3
cran@@ 3
crou@@ 3
cycle 3
dach@@ 3
del@@ 3
disc@@ 3
don 3
door@@ 3
dor 3
dor@@ 3
du 3
ef@@ 3
eil 3
ek 3
eless 3
eli@@ 3
enthusi@@ 3
entu@@ 3
ethni@@ 3
fami@@ 3
fau@@ 3
fee@@ 3
fiel@@ 3
football@@ 3
fran@@ 3
fter 3
gam@@ 3
gat@@ 3
ge-@@ 3
golf@@ 3
hamburger 3
haw@@ 3
hell@@ 3
horizon@@ 3
hula-hoop 3
i-@@ 3
ilt 3
infan@@ 3
inner@@ 3
ire 3
itali@@ 3
iter 3
jam@@ 3
jo 3
jogger 3
jug@@ 3
jugg@@ 3
jum@@ 3
jun@@ 3
k-@@ 3
keeper 3
ken@@ 3
kinds 3
kli@@ 3
kni@@ 3
label@@ 3
labra@@ 3
lad@@ 3
leot@@ 3
letter 3
lied 3
lings 3
live@@ 3
long@@ 3
loun@@ 3
ly@@ 3
mannequ@@ 3
mari@@ 3
marin@@ 3
mati@@ 3
mer 3
meter 3
metri@@ 3
mets 3
mock 3
moder@@ 3
mp 3
nament 3
nati@@ 3
navig@@ 3
neck@@ 3
ner@@ 3
note@@ 3
num@@ 3
olli@@ 3
om@@ 3
onloo@@ 3
ore 3
ort@@ 3
oth@@ 3
outfielder 3
overall 3
pal@@ 3
patri@@ 3
pause 3
pho@@ 3
pier@@ 3
piercings 3
pony@@ 3
portra@@ 3
potat@@ 3
profi@@ 3
progra@@ 3
pump@@ 3
quar@@ 3
restaurants 3
ridor 3
ro 3
rot 3
sari 3
school-@@ 3
scienti@@ 3
scream@@ 3
scu@@ 3
sees 3
sh-@@ 3
shin@@ 3
skinned 3
spen@@ 3
spir@@ 3
sport@@ 3
spot@@ 3
ssel 3
stap@@ 3
stop@@ 3
suspen@@ 3
sy@@ 3
sym@@ 3
tain@@ 3
tank@@ 3
tha@@ 3
ton 3
trin@@ 3
trol@@ 3
tter 3
ttery 3
tut@@ 3
unusu@@ 3
uro 3
us@@ 3
vacuum@@ 3
vement 3
vice 3
vin@@ 3
vro@@ 3
waff@@ 3
walk@@ 3
ware 3
windo@@ 3
wir@@ 3
woo@@ 3
wrest@@ 3
% 2
,@@ 2
ab 2
acrobati@@ 2
ade 2
adi@@ 2
alt@@ 2
amm@@ 2
ammer 2
ander 2
approa@@ 2
aro@@ 2
backflip 2
bad 2
bandan@@ 2
beau@@ 2
bes 2
bikin@@ 2
blea@@ 2
blond-@@ 2
blue@@ 2
boar@@ 2
born 2
bott@@ 2
brides@@ 2
bst 2
buff@@ 2
bus@@ 2
c-@@ 2
camer@@ 2
cand@@ 2
cele@@ 2
cers 2
chur@@ 2
cil 2
cken 2
class@@ 2
classi@@ 2
close@@ 2
cture 2
cue 2
dame 2
die@@ 2
drag@@ 2
dread@@ 2
dul@@ 2
dur@@ 2
dut@@ 2
dy@@ 2
eh@@ 2
ein@@ 2
eine@@ 2
elt 2
ena 2
ene 2
ental 2
entran@@ 2
entre@@ 2
entri@@ 2
ern@@ 2
escal@@ 2
ev@@ 2
even@@ 2
fest 2
ffe 2
film@@ 2
fini@@ 2
flag@@ 2
frei@@ 2
frisbe@@ 2
ful@@ 2
gall@@ 2
geh@@ 2
gel 2
gement 2
gen 2
geri@@ 2
git@@ 2
gos 2
graffit@@ 2
gras@@ 2
hard@@ 2
hei@@ 2
herd 2
hout 2
hug@@ 2
hy@@ 2
hydr@@ 2
iler 2
inform@@ 2
ington 2
invol@@ 2
irts 2
is@@ 2
ke-@@ 2
kets 2
kimon@@ 2
klein 2
ku@@ 2
labor 2
letes 2
ling@@ 2
lly 2
locks 2
los 2
lows 2
lun@@ 2
lung 2
mach@@ 2
mal 2
mau@@ 2
mers 2
met 2
mir@@ 2
model@@ 2
moun@@ 2
navi@@ 2
neigh@@ 2
ners 2
nu@@ 2
oce@@ 2
offi@@ 2
olympi@@ 2
ong@@ 2
orange-@@ 2
outf@@ 2
pa 2
pajam@@ 2
paper@@ 2
paral@@ 2
parks 2
partment 2
pel 2
pf 2
ph 2
pic@@ 2
ples 2
pok@@ 2
possi@@ 2
presen@@ 2
ption 2
puzz@@ 2
rad 2
regal 2
religi@@ 2
rench 2
reo@@ 2
repair@@ 2
ried 2
roll@@ 2
roof@@ 2
rout@@ 2
rug@@ 2
sandwi@@ 2
sar@@ 2
scaffol@@ 2
scen@@ 2
schi@@ 2
schie@@ 2
scho@@ 2
scul@@ 2
secon@@ 2
secur@@ 2
seh@@ 2
sely 2
shaw@@ 2
shop@@ 2
shoul@@ 2
sidel@@ 2
sine 2
sle 2
soft@@ 2
spre@@ 2
ss-@@ 2
sser 2
ssig@@ 2
stam@@ 2
stand@@ 2
stem 2
sten@@ 2
ston 2
stuff@@ 2
stun@@ 2
sung 2
swee@@ 2
swin@@ 2
syn@@ 2
tail@@ 2
tam@@ 2
te-@@ 2
tele@@ 2
terri@@ 2
tet 2
the@@ 2
theat@@ 2
tial 2
tol@@ 2
tor 2
tou@@ 2
tren@@ 2
tty 2
turn@@ 2
two@@ 2
uch 2
uf@@ 2
ulti@@ 2
unter 2
urs 2
us-@@ 2
ussion 2
uta@@ 2
v 2
vari@@ 2
veral 2
vern 2
verw@@ 2
video@@ 2
vie 2
wai@@ 2
wand 2
wash@@ 2
web@@ 2
well@@ 2
xing 2
xy@@ 2
ym@@ 2
zig@@ 2
zun@@ 2
zz@@ 2
$ 1
&apos;@@ 1
-american 1
7@@ 1
= 1
aband@@ 1
abo@@ 1
accor@@ 1
adju@@ 1
af@@ 1
after@@ 1
alie 1
alter 1
alter@@ 1
amo@@ 1
ander@@ 1
anie 1
athle@@ 1
attemp@@ 1
au 1
auto 1
bal 1
ballons 1
ban 1
bask@@ 1
beach@@ 1
bed@@ 1
bei@@ 1
beige@@ 1
bel 1
ben 1
ben@@ 1
bene@@ 1
bies 1
bill@@ 1
boo 1
boot 1
bora@@ 1
borne 1
bou@@ 1
braun 1
brown@@ 1
brun@@ 1
bt 1
bub@@ 1
buck@@ 1
bulldo@@ 1
butter@@ 1
by-@@ 1
cated 1
cauc@@ 1
chal@@ 1
chalk@@ 1
cham@@ 1
che 1
checker@@ 1
chel@@ 1
chine@@ 1
chor 1
chs 1
cht 1
cident 1
cket 1
climb@@ 1
clou@@ 1
cock@@ 1
conc@@ 1
concre@@ 1
contra@@ 1
countr@@ 1
cow@@ 1
del 1
dent 1
deo 1
dern 1
des@@ 1
dess@@ 1
dest 1
differ@@ 1
donal@@ 1
dt 1
dump@@ 1
eg@@ 1
eine 1
einer 1
eins 1
elect@@ 1
elf 1
eller 1
enth@@ 1
erer 1
erie 1
ert 1
essen 1
establi@@ 1
eth@@ 1
ett@@ 1
eu@@ 1
euro@@ 1
ever@@ 1
exer@@ 1
fabri@@ 1
fac@@ 1
famili@@ 1
feder@@ 1
fern 1
ffee 1
ffer@@ 1
flan@@ 1
flau@@ 1
flops 1
foli@@ 1
fon@@ 1
footed 1
fted 1
ga 1
gas@@ 1
gel@@ 1
gender 1
geno@@ 1
gical 1
gir@@ 1
golden@@ 1
graff@@ 1
gras 1
gray@@ 1
gru@@ 1
gt 1
gue 1
guitar@@ 1
gul@@ 1
gur@@ 1
gut 1
hab@@ 1
harmoni@@ 1
hart 1
hawai@@ 1
helm 1
hill@@ 1
hl 1
hm@@ 1
hospit@@ 1
ig 1
ima@@ 1
indian@@ 1
indu@@ 1
ing-@@ 1
inju@@ 1
inspi@@ 1
irt 1
itten 1
jung@@ 1
kal@@ 1
kan@@ 1
kasse 1
kenn@@ 1
ket 1
kis 1
kite@@ 1
ko 1
kor@@ 1
kra@@ 1
labor@@ 1
lage 1
lamp@@ 1
lared 1
laugh@@ 1
lie@@ 1
lil@@ 1
litt@@ 1
lk@@ 1
lli@@ 1
lly@@ 1
lob@@ 1
man-@@ 1
mann@@ 1
mc@@ 1
ment@@ 1
milit@@ 1
mitten 1
mmen@@ 1
mmer@@ 1
modi@@ 1
monit@@ 1
motori@@ 1
mur@@ 1
musi@@ 1
mut@@ 1
nah 1
ne 1
nea@@ 1
neh@@ 1
neu@@ 1
nis 1
not@@ 1
numer@@ 1
obsta@@ 1
od@@ 1
offen@@ 1
onne 1
op-@@ 1
oph@@ 1
or-@@ 1
oran@@ 1
orn@@ 1
ory 1
outfiel@@ 1
ow 1
papa 1
pating 1
perform@@ 1
performan@@ 1
pian@@ 1
pig@@ 1
pink-@@ 1
pink@@ 1
pizz@@ 1
pizzeria 1
pod 1
police@@ 1
pool@@ 1
pos@@ 1
ppen 1
ppies 1
practi@@ 1
produ@@ 1
publi@@ 1
pullover 1
py@@ 1
q@@ 1
quarter@@ 1
quo@@ 1
race@@ 1
rece@@ 1
ree 1
reg@@ 1
regen@@ 1
repa@@ 1
restaurant@@ 1
rested 1
ricksha@@ 1
rollersk@@ 1
rot@@ 1
rum 1
rying 1
sax@@ 1
sch 1
schwin@@ 1
sei@@ 1
sell@@ 1
sen 1
shal@@ 1
shepher@@ 1
shir@@ 1
shirt@@ 1
shment 1
sie 1
silhouet@@ 1
skatepark 1
smar@@ 1
smartphone 1
snea@@ 1
sof@@ 1
soon@@ 1
spani@@ 1
spark 1
spor@@ 1
spr@@ 1
spra@@ 1
spring@@ 1
sque@@ 1
squee@@ 1
ssa@@ 1
sse 1
ssell 1
ssi 1
ssor 1
stab@@ 1
stad@@ 1
stange 1
stau@@ 1
stel@@ 1
stening 1
stens 1
stin 1
strin@@ 1
stur@@ 1
stures 1
suring 1
symbo@@ 1
synchroni@@ 1
tab@@ 1
tem 1
tently 1
ters@@ 1
thi@@ 1
thum@@ 1
tig@@ 1
togra@@ 1
tooth@@ 1
tory 1
tos 1
touri@@ 1
towar@@ 1
track@@ 1
traf@@ 1
trainer 1
tramp@@ 1
treadmi@@ 1
trei@@ 1
tt 1
tte 1
tting 1
ump@@ 1
uniform@@ 1
usk 1
vel 1
versu@@ 1
vibran@@ 1
vier 1
visi@@ 1
vri@@ 1
wander@@ 1
wart 1
wel 1
wen@@ 1
wheelbar@@ 1
willi@@ 1
wol@@ 1
worl@@ 1
x-@@ 1
xylo@@ 1
yho@@ 1
ympi@@ 1
za 1
zebra@@ 1
zement 1
zer@@ 1
zu 1
madeupword0000 0
madeupword0001 0
madeupword0002 0
madeupword0003 0
madeupword0004 0
